// 
// Generated By: dol2asm
// 

#include "dolphin/types.h"

// 
// Additional Symbols:
// 

extern "C" {
extern void _unresolved();
extern void bound__FP4cXyzRC13cBgS_PolyInfof();
extern void __dt__8cM3dGPlaFv();
extern void CheckCreateHeap__FP10fopAc_ac_c();
extern void initBaseMtx__12daObjStone_cFv();
extern void setBaseMtx__12daObjStone_cFv();
extern void Create__12daObjStone_cFv();
extern void CreateHeap__12daObjStone_cFv();
extern void create__12daObjStone_cFv();
extern void __dt__8cM3dGSphFv();
extern void __dt__8cM3dGAabFv();
extern void __dt__10dCcD_GSttsFv();
extern void __dt__12dBgS_AcchCirFv();
extern void __dt__12dBgS_ObjAcchFv();
extern void execute__12daObjStone_cFv();
extern void mode_proc_call__12daObjStone_cFv();
extern void __dt__14dBgS_ObjGndChkFv();
extern void init_modePutWait__12daObjStone_cFv();
extern void modePutWait__12daObjStone_cFv();
extern void init_modeWait__12daObjStone_cFv();
extern void modeWait__12daObjStone_cFv();
extern void init_modeDrop__12daObjStone_cFv();
extern void modeDrop__12daObjStone_cFv();
extern void init_modeCarry__12daObjStone_cFv();
extern void modeCarry__12daObjStone_cFv();
extern void init_modeWalk__12daObjStone_cFv();
extern void modeWalk__12daObjStone_cFv();
extern void init_modePushWolfNonBreak__12daObjStone_cFv();
extern void init_modeYogan__12daObjStone_cFv();
extern void modeYogan__12daObjStone_cFv();
extern void init_modeBreak__12daObjStone_cFv();
extern void modeBreak__12daObjStone_cFv();
extern void CrrPos__12daObjStone_cFv();
extern void createItem__12daObjStone_cFv();
extern void calcRotBaseMtx__12daObjStone_cFPs();
extern void checkRollAngle__12daObjStone_cFv();
extern void set_carry_eff__12daObjStone_cFv();
extern void effect_delete__12daObjStone_cFb();
extern void draw__12daObjStone_cFv();
extern void _delete__12daObjStone_cFv();
extern void daObjStone_Draw__FP12daObjStone_c();
extern void daObjStone_Execute__FP12daObjStone_c();
extern void daObjStone_Delete__FP12daObjStone_c();
extern void daObjStone_Create__FP10fopAc_ac_c();
extern void __dt__10cCcD_GSttsFv();
extern void func_80CECA84();
extern void func_80CECA8C();
extern void func_80CECA94();
extern void func_80CECA9C();
extern void func_80CECAA4();
extern const u8 unknown_translation_unit_ctors__data_80CECAAC[4];
extern const u8 unknown_translation_unit_dtors__data_80CECAB0[4];
SECTION_RODATA extern const u8 l_bmdIdx[8];
SECTION_RODATA extern const u8 l_sph_src[64];
SECTION_RODATA extern const u8 l_r[8];
SECTION_RODATA extern const u8 l_rolling_speedF[8];
SECTION_RODATA extern const u8 l_rolling_time[8];
SECTION_RODATA extern const u8 l_initial_offsetY[8];
SECTION_RODATA extern const u8 l_put_offsetY[8];
SECTION_RODATA extern const u8 l_weight[4];
SECTION_RODATA extern const u8 l_speedH[8];
SECTION_RODATA extern const u8 l_speedV[8];
SECTION_RODATA extern const u8 l_water_speedH[8];
SECTION_RODATA extern const u8 l_water_speedV[8];
SECTION_RODATA extern const u8 l_water_resist[8];
SECTION_RODATA extern const u8 l_water_walk_resist[8];
SECTION_RODATA extern const u8 l_buoyancy[8];
SECTION_RODATA extern const u8 l_shadow_size[8];
SECTION_RODATA extern const u8 l_wpillar_scl[8];
SECTION_RODATA extern const u8 l_hamon_scl[8];
SECTION_RODATA extern const u8 l_yogan_eff_scl[8];
SECTION_RODATA extern const u8 l_wall_h[8];
SECTION_RODATA extern const u8 l_wall_r[8];
SECTION_RODATA extern const u8 l_rot_angle[4];
SECTION_RODATA extern const u8 l_walk_rot_angle[4];
SECTION_RODATA extern const u8 LIT_3746[4];
SECTION_RODATA extern const u8 LIT_3747[8];
SECTION_RODATA extern const u8 LIT_3748[8];
SECTION_RODATA extern const u8 LIT_3749[8];
SECTION_RODATA extern const u8 LIT_3844[4];
SECTION_RODATA extern const u8 LIT_3845[4];
SECTION_RODATA extern const u8 LIT_4010[4];
SECTION_RODATA extern const u8 LIT_4632[4];
SECTION_RODATA extern const u8 LIT_4633[4];
SECTION_RODATA extern const u8 LIT_4634[4];
SECTION_RODATA extern const u8 LIT_4635[4];
SECTION_RODATA extern const u8 LIT_4636[4];
SECTION_RODATA extern const u8 LIT_4637[4];
SECTION_RODATA extern const u8 LIT_4638[4];
SECTION_RODATA extern const u8 LIT_4639[4];
SECTION_RODATA extern const u8 LIT_4640[4];
SECTION_RODATA extern const u8 LIT_4641[4];
SECTION_RODATA extern const u8 LIT_4642[4];
SECTION_RODATA extern const u8 LIT_4643[4];
SECTION_RODATA extern const u8 LIT_4644[4];
SECTION_RODATA extern const u8 LIT_4678[4];
SECTION_RODATA extern const u8 LIT_4679[4];
SECTION_RODATA extern const u8 LIT_4829[4];
SECTION_RODATA extern const u8 LIT_5018[4];
SECTION_RODATA extern const u8 LIT_5019[4];
SECTION_RODATA extern const u8 LIT_5020[4];
SECTION_RODATA extern const u8 LIT_5021[4];
SECTION_RODATA extern const u8 LIT_5063[4];
SECTION_RODATA extern const u8 LIT_5064[4];
SECTION_RODATA extern const u8 LIT_5074[4];
SECTION_RODATA extern const u8 LIT_5075[4];
SECTION_RODATA extern const u8 data_80CECC20[12];
SECTION_RODATA extern const u8 LIT_5256[8];
SECTION_RODATA extern const u8 data_80CECC34[8];
SECTION_RODATA extern const u8 stringBase0[23];
SECTION_DATA extern u8 cNullVec__6Z2Calc[12];
SECTION_DATA extern u8 LIT_1787[20];
SECTION_DATA extern u8 l_arcName[8];
SECTION_DATA extern u8 LIT_4015[12];
SECTION_DATA extern u8 LIT_4016[12];
SECTION_DATA extern u8 LIT_4017[12];
SECTION_DATA extern u8 LIT_4018[12];
SECTION_DATA extern u8 LIT_4019[12];
SECTION_DATA extern u8 LIT_4020[12];
SECTION_DATA extern u8 LIT_4021[12];
SECTION_DATA extern u8 data_80CECCD0[84];
SECTION_DATA extern u8 l_daObjStone_Method[32];
SECTION_DATA extern u8 g_profile_Obj_Stone[48];
SECTION_DATA extern void* __vt__14dBgS_ObjGndChk[12];
SECTION_DATA extern void* __vt__12dBgS_AcchCir[3];
SECTION_DATA extern void* __vt__10cCcD_GStts[3];
SECTION_DATA extern void* __vt__10dCcD_GStts[3];
SECTION_DATA extern void* __vt__8cM3dGSph[3];
SECTION_DATA extern void* __vt__8cM3dGAab[3];
SECTION_DATA extern void* __vt__12dBgS_ObjAcch[9];
SECTION_DATA extern void* __vt__8cM3dGPla[3];
SECTION_BSS extern u8 unknown_translation_unit_bss__data_80CECE1C[4];
}


/* ###################################################################################### */
/*                                        .rodata                                         */
/* ###################################################################################### */

extern "C" {
/* 80CECC3C-80CECC53 0017 .rodata    @stringBase0                                                 */
#pragma push
#pragma force_active on
#pragma section ".dead"
SECTION_DEAD const char* const stringBase_80CECC3C = "D_Srock";
SECTION_DEAD const char* const stringBase_80CECC44 = "D_Brock";
SECTION_DEAD const char* const stringBase_80CECC4C = "Always";
#pragma pop
/* 80CECAB4-80CECAB4 0000 .rodata    ...rodata.0                                                  */
/* 80CECAB4-80CECABC 0008 .rodata    l_bmdIdx                                                     */
SECTION_RODATA const u8 l_bmdIdx[8] = {
	0x00, 0x00, 0x00, 0x03, 0x00, 0x00, 0x00, 0x03,
};
/* 80CECABC-80CECAFC 0040 .rodata    l_sph_src                                                    */
SECTION_RODATA const u8 l_sph_src[64] = {
	0x00, 0x00, 0x00, 0x00, 0x00, 0x00, 0x00, 0x08, 0x03, 0x00, 0x00, 0x00, 0x00, 0x00, 0x00, 0x13,
	0xD8, 0xFA, 0xFD, 0xFF, 0x00, 0x00, 0x00, 0x11, 0x00, 0x00, 0x00, 0x79, 0x12, 0x00, 0x00, 0x00,
	0x00, 0x00, 0x00, 0x08, 0x00, 0x02, 0x00, 0x00, 0x00, 0x00, 0x00, 0x03, 0x00, 0x00, 0x00, 0x00,
	0x00, 0x00, 0x00, 0x00, 0x00, 0x00, 0x00, 0x00, 0x00, 0x00, 0x00, 0x00, 0x42, 0x48, 0x00, 0x00,
};
/* 80CECAFC-80CECB04 0008 .rodata    l_r                                                          */
SECTION_RODATA const u8 l_r[8] = {
	0x41, 0xF0, 0x00, 0x00, 0x42, 0x48, 0x00, 0x00,
};
/* 80CECB04-80CECB0C 0008 .rodata    l_rolling_speedF                                             */
SECTION_RODATA const u8 l_rolling_speedF[8] = {
	0x41, 0x10, 0x00, 0x00, 0x41, 0x10, 0x00, 0x00,
};
/* 80CECB0C-80CECB14 0008 .rodata    l_rolling_time                                               */
SECTION_RODATA const u8 l_rolling_time[8] = {
	0x00, 0x00, 0x00, 0x1E, 0x00, 0x00, 0x00, 0x17,
};
/* 80CECB14-80CECB1C 0008 .rodata    l_initial_offsetY                                            */
SECTION_RODATA const u8 l_initial_offsetY[8] = {
	0x41, 0x20, 0x00, 0x00, 0x41, 0xA0, 0x00, 0x00,
};
/* 80CECB1C-80CECB24 0008 .rodata    l_put_offsetY                                                */
SECTION_RODATA const u8 l_put_offsetY[8] = {
	0x41, 0xA0, 0x00, 0x00, 0x41, 0xF0, 0x00, 0x00,
};
/* 80CECB24-80CECB28 0002 .rodata    l_weight                                                     */
SECTION_RODATA const u8 l_weight[4] = {
	0x78, 0xC8,
	/* padding */
	0x00, 0x00,
};
/* 80CECB28-80CECB30 0008 .rodata    l_speedH                                                     */
SECTION_RODATA const u8 l_speedH[8] = {
	0x42, 0x10, 0x00, 0x00, 0x42, 0x2C, 0x00, 0x00,
};
/* 80CECB30-80CECB38 0008 .rodata    l_speedV                                                     */
SECTION_RODATA const u8 l_speedV[8] = {
	0x41, 0xD8, 0x00, 0x00, 0x41, 0xB0, 0x00, 0x00,
};
/* 80CECB38-80CECB40 0008 .rodata    l_water_speedH                                               */
SECTION_RODATA const u8 l_water_speedH[8] = {
	0x40, 0xA0, 0x00, 0x00, 0x40, 0xA0, 0x00, 0x00,
};
/* 80CECB40-80CECB48 0008 .rodata    l_water_speedV                                               */
SECTION_RODATA const u8 l_water_speedV[8] = {
	0x40, 0xA0, 0x00, 0x00, 0x40, 0xA0, 0x00, 0x00,
};
/* 80CECB48-80CECB50 0008 .rodata    l_water_resist                                               */
SECTION_RODATA const u8 l_water_resist[8] = {
	0x3C, 0xA3, 0xD7, 0x0A, 0x3C, 0xA3, 0xD7, 0x0A,
};
/* 80CECB50-80CECB58 0008 .rodata    l_water_walk_resist                                          */
SECTION_RODATA const u8 l_water_walk_resist[8] = {
	0x3E, 0x19, 0x99, 0x9A, 0x3E, 0x19, 0x99, 0x9A,
};
/* 80CECB58-80CECB60 0008 .rodata    l_buoyancy                                                   */
SECTION_RODATA const u8 l_buoyancy[8] = {
	0x40, 0xBC, 0xCC, 0xCD, 0x40, 0xBC, 0xCC, 0xCD,
};
/* 80CECB60-80CECB68 0008 .rodata    l_shadow_size                                                */
SECTION_RODATA const u8 l_shadow_size[8] = {
	0x42, 0x20, 0x00, 0x00, 0x42, 0x82, 0x00, 0x00,
};
/* 80CECB68-80CECB70 0008 .rodata    l_wpillar_scl                                                */
SECTION_RODATA const u8 l_wpillar_scl[8] = {
	0x3F, 0x26, 0x66, 0x66, 0x3F, 0x8C, 0xCC, 0xCD,
};
/* 80CECB70-80CECB78 0008 .rodata    l_hamon_scl                                                  */
SECTION_RODATA const u8 l_hamon_scl[8] = {
	0x3F, 0x33, 0x33, 0x33, 0x3F, 0x99, 0x99, 0x9A,
};
/* 80CECB78-80CECB80 0008 .rodata    l_yogan_eff_scl                                              */
SECTION_RODATA const u8 l_yogan_eff_scl[8] = {
	0x3F, 0x19, 0x99, 0x9A, 0x3F, 0x8C, 0xCC, 0xCD,
};
/* 80CECB80-80CECB88 0008 .rodata    l_wall_h                                                     */
SECTION_RODATA const u8 l_wall_h[8] = {
	0x41, 0xF0, 0x00, 0x00, 0x42, 0x48, 0x00, 0x00,
};
/* 80CECB88-80CECB90 0008 .rodata    l_wall_r                                                     */
SECTION_RODATA const u8 l_wall_r[8] = {
	0x41, 0xF0, 0x00, 0x00, 0x42, 0x48, 0x00, 0x00,
};
/* 80CECB90-80CECB94 0004 .rodata    l_rot_angle                                                  */
SECTION_RODATA const u8 l_rot_angle[4] = {
	0x00, 0x23, 0x00, 0x12,
};
/* 80CECB94-80CECB98 0004 .rodata    l_walk_rot_angle                                             */
SECTION_RODATA const u8 l_walk_rot_angle[4] = {
	0x00, 0x28, 0x00, 0x28,
};
/* 80CECB98-80CECB9C 0004 .rodata    @3746                                                        */
SECTION_RODATA const u8 LIT_3746[4] = {
	0x00, 0x00, 0x00, 0x00,
};
/* 80CECB9C-80CECBA4 0008 .rodata    @3747                                                        */
SECTION_RODATA const u8 LIT_3747[8] = {
	0x3F, 0xE0, 0x00, 0x00, 0x00, 0x00, 0x00, 0x00,
};
/* 80CECBA4-80CECBAC 0008 .rodata    @3748                                                        */
SECTION_RODATA const u8 LIT_3748[8] = {
	0x40, 0x08, 0x00, 0x00, 0x00, 0x00, 0x00, 0x00,
};
/* 80CECBAC-80CECBB4 0008 .rodata    @3749                                                        */
SECTION_RODATA const u8 LIT_3749[8] = {
	0x00, 0x00, 0x00, 0x00, 0x00, 0x00, 0x00, 0x00,
};
/* 80CECBB4-80CECBB8 0004 .rodata    @3844                                                        */
SECTION_RODATA const u8 LIT_3844[4] = {
	0x3F, 0x99, 0x99, 0x9A,
};
/* 80CECBB8-80CECBBC 0004 .rodata    @3845                                                        */
SECTION_RODATA const u8 LIT_3845[4] = {
	0x3F, 0x80, 0x00, 0x00,
};
/* 80CECBBC-80CECBC0 0004 .rodata    @4010                                                        */
SECTION_RODATA const u8 LIT_4010[4] = {
	0xC0, 0xC0, 0x00, 0x00,
};
/* 80CECBC0-80CECBC4 0004 .rodata    @4632                                                        */
SECTION_RODATA const u8 LIT_4632[4] = {
	0x40, 0x00, 0x00, 0x00,
};
/* 80CECBC4-80CECBC8 0004 .rodata    @4633                                                        */
SECTION_RODATA const u8 LIT_4633[4] = {
	0x3E, 0xCC, 0xCC, 0xCD,
};
/* 80CECBC8-80CECBCC 0004 .rodata    @4634                                                        */
SECTION_RODATA const u8 LIT_4634[4] = {
	0x3F, 0x00, 0x00, 0x00,
};
/* 80CECBCC-80CECBD0 0004 .rodata    @4635                                                        */
SECTION_RODATA const u8 LIT_4635[4] = {
	0x3D, 0xCC, 0xCC, 0xCD,
};
/* 80CECBD0-80CECBD4 0004 .rodata    @4636                                                        */
SECTION_RODATA const u8 LIT_4636[4] = {
	0xC7, 0xC3, 0x50, 0x00,
};
/* 80CECBD4-80CECBD8 0004 .rodata    @4637                                                        */
SECTION_RODATA const u8 LIT_4637[4] = {
	0xCE, 0x6E, 0x6B, 0x28,
};
/* 80CECBD8-80CECBDC 0004 .rodata    @4638                                                        */
SECTION_RODATA const u8 LIT_4638[4] = {
	0x42, 0x70, 0x00, 0x00,
};
/* 80CECBDC-80CECBE0 0004 .rodata    @4639                                                        */
SECTION_RODATA const u8 LIT_4639[4] = {
	0x42, 0xC8, 0x00, 0x00,
};
/* 80CECBE0-80CECBE4 0004 .rodata    @4640                                                        */
SECTION_RODATA const u8 LIT_4640[4] = {
	0xBF, 0x80, 0x00, 0x00,
};
/* 80CECBE4-80CECBE8 0004 .rodata    @4641                                                        */
SECTION_RODATA const u8 LIT_4641[4] = {
	0x42, 0xB4, 0x00, 0x00,
};
/* 80CECBE8-80CECBEC 0004 .rodata    @4642                                                        */
SECTION_RODATA const u8 LIT_4642[4] = {
	0xC1, 0x20, 0x00, 0x00,
};
/* 80CECBEC-80CECBF0 0004 .rodata    @4643                                                        */
SECTION_RODATA const u8 LIT_4643[4] = {
	0x41, 0x20, 0x00, 0x00,
};
/* 80CECBF0-80CECBF4 0004 .rodata    @4644                                                        */
SECTION_RODATA const u8 LIT_4644[4] = {
	0x42, 0x48, 0x00, 0x00,
};
/* 80CECBF4-80CECBF8 0004 .rodata    @4678                                                        */
SECTION_RODATA const u8 LIT_4678[4] = {
	0x3F, 0x73, 0x33, 0x33,
};
/* 80CECBF8-80CECBFC 0004 .rodata    @4679                                                        */
SECTION_RODATA const u8 LIT_4679[4] = {
	0x41, 0x00, 0x00, 0x00,
};
/* 80CECBFC-80CECC00 0004 .rodata    @4829                                                        */
SECTION_RODATA const u8 LIT_4829[4] = {
	0x3E, 0x80, 0x00, 0x00,
};
/* 80CECC00-80CECC04 0004 .rodata    @5018                                                        */
SECTION_RODATA const u8 LIT_5018[4] = {
	0x46, 0x7B, 0xBB, 0xBC,
};
/* 80CECC04-80CECC08 0004 .rodata    @5019                                                        */
SECTION_RODATA const u8 LIT_5019[4] = {
	0x3F, 0x4C, 0xCC, 0xCD,
};
/* 80CECC08-80CECC0C 0004 .rodata    @5020                                                        */
SECTION_RODATA const u8 LIT_5020[4] = {
	0x3C, 0x23, 0xD7, 0x0B,
};
/* 80CECC0C-80CECC10 0004 .rodata    @5021                                                        */
SECTION_RODATA const u8 LIT_5021[4] = {
	0x3F, 0x66, 0x66, 0x66,
};
/* 80CECC10-80CECC14 0004 .rodata    @5063                                                        */
SECTION_RODATA const u8 LIT_5063[4] = {
	0xBE, 0xCC, 0xCC, 0xCD,
};
/* 80CECC14-80CECC18 0004 .rodata    @5064                                                        */
SECTION_RODATA const u8 LIT_5064[4] = {
	0xC0, 0x00, 0x00, 0x00,
};
/* 80CECC18-80CECC1C 0004 .rodata    @5074                                                        */
SECTION_RODATA const u8 LIT_5074[4] = {
	0x43, 0x48, 0x00, 0x00,
};
/* 80CECC1C-80CECC20 0004 .rodata    @5075                                                        */
SECTION_RODATA const u8 LIT_5075[4] = {
	0x3F, 0x26, 0x66, 0x66,
};
/* 80CECC20-80CECC2C 0006 .rodata    l_eff_id$5089                                                */
SECTION_RODATA const u8 data_80CECC20[12] = {
	0x85, 0x9B, 0x85, 0x9C, 0x85, 0x9D,
	/* padding */
	0x00, 0x00, 0x00, 0x00, 0x00, 0x00,
};
/* 80CECC2C-80CECC34 0008 .rodata    @5256                                                        */
SECTION_RODATA const u8 LIT_5256[8] = {
	0x43, 0x30, 0x00, 0x00, 0x80, 0x00, 0x00, 0x00,
};
/* 80CECC34-80CECC3C 0006 .rodata    l_carry_eff_id$5307                                          */
SECTION_RODATA const u8 data_80CECC34[8] = {
	0x85, 0x9E, 0x85, 0x9F, 0x85, 0xA0,
	/* padding */
	0x00, 0x00,
};
}


/* ###################################################################################### */
/*                                         .data                                          */
/* ###################################################################################### */

extern "C" {
/* 80CECC54-80CECC54 0000 .data      ...data.0                                                    */
/* 80CECC54-80CECC60 000C .data      cNullVec__6Z2Calc                                            */
SECTION_DATA u8 cNullVec__6Z2Calc[12] = {
	0x00, 0x00, 0x00, 0x00, 0x00, 0x00, 0x00, 0x00, 0x00, 0x00, 0x00, 0x00,
};
/* 80CECC60-80CECC74 0004 .data      @1787                                                        */
SECTION_DATA u8 LIT_1787[20] = {
	0x02, 0x00, 0x02, 0x01,
	/* padding */
	0x40, 0x08, 0x00, 0x00, 0x00, 0x00, 0x00, 0x00, 0x3F, 0xE0, 0x00, 0x00, 0x00, 0x00, 0x00, 0x00,
};
/* 80CECC74-80CECC7C 0008 .data      l_arcName                                                    */
SECTION_DATA u8 l_arcName[8] = {
	0x00, 0x00, 0x00, 0x00, 0x00, 0x00, 0x00, 0x00,
};
/* 80CECC7C-80CECC88 000C .data      @4015                                                        */
SECTION_DATA u8 LIT_4015[12] = {
	0x00, 0x00, 0x00, 0x00, 0xFF, 0xFF, 0xFF, 0xFF, 0x00, 0x00, 0x00, 0x00,
};
/* 80CECC88-80CECC94 000C .data      @4016                                                        */
SECTION_DATA u8 LIT_4016[12] = {
	0x00, 0x00, 0x00, 0x00, 0xFF, 0xFF, 0xFF, 0xFF, 0x00, 0x00, 0x00, 0x00,
};
/* 80CECC94-80CECCA0 000C .data      @4017                                                        */
SECTION_DATA u8 LIT_4017[12] = {
	0x00, 0x00, 0x00, 0x00, 0xFF, 0xFF, 0xFF, 0xFF, 0x00, 0x00, 0x00, 0x00,
};
/* 80CECCA0-80CECCAC 000C .data      @4018                                                        */
SECTION_DATA u8 LIT_4018[12] = {
	0x00, 0x00, 0x00, 0x00, 0xFF, 0xFF, 0xFF, 0xFF, 0x00, 0x00, 0x00, 0x00,
};
/* 80CECCAC-80CECCB8 000C .data      @4019                                                        */
SECTION_DATA u8 LIT_4019[12] = {
	0x00, 0x00, 0x00, 0x00, 0xFF, 0xFF, 0xFF, 0xFF, 0x00, 0x00, 0x00, 0x00,
};
/* 80CECCB8-80CECCC4 000C .data      @4020                                                        */
SECTION_DATA u8 LIT_4020[12] = {
	0x00, 0x00, 0x00, 0x00, 0xFF, 0xFF, 0xFF, 0xFF, 0x00, 0x00, 0x00, 0x00,
};
/* 80CECCC4-80CECCD0 000C .data      @4021                                                        */
SECTION_DATA u8 LIT_4021[12] = {
	0x00, 0x00, 0x00, 0x00, 0xFF, 0xFF, 0xFF, 0xFF, 0x00, 0x00, 0x00, 0x00,
};
/* 80CECCD0-80CECD24 0054 .data      l_func$4014                                                  */
SECTION_DATA u8 data_80CECCD0[84] = {
	0x00, 0x00, 0x00, 0x00, 0x00, 0x00, 0x00, 0x00, 0x00, 0x00, 0x00, 0x00, 0x00, 0x00, 0x00, 0x00,
	0x00, 0x00, 0x00, 0x00, 0x00, 0x00, 0x00, 0x00, 0x00, 0x00, 0x00, 0x00, 0x00, 0x00, 0x00, 0x00,
	0x00, 0x00, 0x00, 0x00, 0x00, 0x00, 0x00, 0x00, 0x00, 0x00, 0x00, 0x00, 0x00, 0x00, 0x00, 0x00,
	0x00, 0x00, 0x00, 0x00, 0x00, 0x00, 0x00, 0x00, 0x00, 0x00, 0x00, 0x00, 0x00, 0x00, 0x00, 0x00,
	0x00, 0x00, 0x00, 0x00, 0x00, 0x00, 0x00, 0x00, 0x00, 0x00, 0x00, 0x00, 0x00, 0x00, 0x00, 0x00,
	0x00, 0x00, 0x00, 0x00,
};
/* 80CECD24-80CECD44 0020 .data      l_daObjStone_Method                                          */
SECTION_DATA u8 l_daObjStone_Method[32] = {
	0x00, 0x00, 0x00, 0x00, 0x00, 0x00, 0x00, 0x00, 0x00, 0x00, 0x00, 0x00, 0x00, 0x00, 0x00, 0x00,
	0x00, 0x00, 0x00, 0x00, 0x00, 0x00, 0x00, 0x00, 0x00, 0x00, 0x00, 0x00, 0x00, 0x00, 0x00, 0x00,
};
/* 80CECD44-80CECD74 0030 .data      g_profile_Obj_Stone                                          */
SECTION_DATA u8 g_profile_Obj_Stone[48] = {
	0xFF, 0xFF, 0xFF, 0xFD, 0x00, 0x08, 0xFF, 0xFD, 0x02, 0xFD, 0x00, 0x00, 0x00, 0x00, 0x00, 0x00,
	0x00, 0x00, 0x09, 0x90, 0x00, 0x00, 0x00, 0x00, 0x00, 0x00, 0x00, 0x00, 0x00, 0x00, 0x00, 0x00,
	0x01, 0xFF, 0x00, 0x00, 0x00, 0x00, 0x00, 0x00, 0x00, 0x04, 0x01, 0x00, 0x00, 0x17, 0x00, 0x00,
};
/* 80CECD74-80CECDA4 0030 .data      __vt__14dBgS_ObjGndChk                                       */
SECTION_DATA void* __vt__14dBgS_ObjGndChk[12] = {
	NULL, /* RTTI */
	NULL,
	NULL,
	NULL,
	NULL,
	NULL,
	NULL,
	NULL,
	NULL,
	NULL,
	NULL,
	NULL,
};
/* 80CECDA4-80CECDB0 000C .data      __vt__12dBgS_AcchCir                                         */
SECTION_DATA void* __vt__12dBgS_AcchCir[3] = {
	NULL, /* RTTI */
	NULL,
	NULL,
};
/* 80CECDB0-80CECDBC 000C .data      __vt__10cCcD_GStts                                           */
SECTION_DATA void* __vt__10cCcD_GStts[3] = {
	NULL, /* RTTI */
	NULL,
	NULL,
};
/* 80CECDBC-80CECDC8 000C .data      __vt__10dCcD_GStts                                           */
SECTION_DATA void* __vt__10dCcD_GStts[3] = {
	NULL, /* RTTI */
	NULL,
	NULL,
};
/* 80CECDC8-80CECDD4 000C .data      __vt__8cM3dGSph                                              */
SECTION_DATA void* __vt__8cM3dGSph[3] = {
	NULL, /* RTTI */
	NULL,
	NULL,
};
/* 80CECDD4-80CECDE0 000C .data      __vt__8cM3dGAab                                              */
SECTION_DATA void* __vt__8cM3dGAab[3] = {
	NULL, /* RTTI */
	NULL,
	NULL,
};
/* 80CECDE0-80CECE04 0024 .data      __vt__12dBgS_ObjAcch                                         */
SECTION_DATA void* __vt__12dBgS_ObjAcch[9] = {
	NULL, /* RTTI */
	NULL,
	NULL,
	NULL,
	NULL,
	NULL,
	NULL,
	NULL,
	NULL,
};
/* 80CECE04-80CECE10 000C .data      __vt__8cM3dGPla                                              */
SECTION_DATA void* __vt__8cM3dGPla[3] = {
	NULL, /* RTTI */
	NULL,
	NULL,
};
}


/* ###################################################################################### */
/*                                         .text                                          */
/* ###################################################################################### */

/* 80CE9078-80CE935C 02E4 .text      bound__FP4cXyzRC13cBgS_PolyInfof                             */
#pragma push
#pragma optimization_level 0
#pragma optimizewithasm off
asm void bound__FP4cXyzRC13cBgS_PolyInfof() {
	nofralloc
#include "asm/rel/d_a_obj_stone/d_a_obj_stone/bound__FP4cXyzRC13cBgS_PolyInfof.s"
}
#pragma pop

/* 80CE935C-80CE93A4 0048 .text      __dt__8cM3dGPlaFv                                            */
#pragma push
#pragma optimization_level 0
#pragma optimizewithasm off
asm void __dt__8cM3dGPlaFv() {
	nofralloc
#include "asm/rel/d_a_obj_stone/d_a_obj_stone/__dt__8cM3dGPlaFv.s"
}
#pragma pop

/* 80CE93A4-80CE93C4 0020 .text      CheckCreateHeap__FP10fopAc_ac_c                              */
#pragma push
#pragma optimization_level 0
#pragma optimizewithasm off
asm void CheckCreateHeap__FP10fopAc_ac_c() {
	nofralloc
#include "asm/rel/d_a_obj_stone/d_a_obj_stone/CheckCreateHeap__FP10fopAc_ac_c.s"
}
#pragma pop

/* 80CE93C4-80CE9468 00A4 .text      initBaseMtx__12daObjStone_cFv                                */
#pragma push
#pragma optimization_level 0
#pragma optimizewithasm off
asm void initBaseMtx__12daObjStone_cFv() {
	nofralloc
#include "asm/rel/d_a_obj_stone/d_a_obj_stone/initBaseMtx__12daObjStone_cFv.s"
}
#pragma pop

/* 80CE9468-80CE9540 00D8 .text      setBaseMtx__12daObjStone_cFv                                 */
#pragma push
#pragma optimization_level 0
#pragma optimizewithasm off
asm void setBaseMtx__12daObjStone_cFv() {
	nofralloc
#include "asm/rel/d_a_obj_stone/d_a_obj_stone/setBaseMtx__12daObjStone_cFv.s"
}
#pragma pop

/* 80CE9540-80CE97C0 0280 .text      Create__12daObjStone_cFv                                     */
#pragma push
#pragma optimization_level 0
#pragma optimizewithasm off
asm void Create__12daObjStone_cFv() {
	nofralloc
#include "asm/rel/d_a_obj_stone/d_a_obj_stone/Create__12daObjStone_cFv.s"
}
#pragma pop

/* 80CE97C0-80CE9840 0080 .text      CreateHeap__12daObjStone_cFv                                 */
#pragma push
#pragma optimization_level 0
#pragma optimizewithasm off
asm void CreateHeap__12daObjStone_cFv() {
	nofralloc
#include "asm/rel/d_a_obj_stone/d_a_obj_stone/CreateHeap__12daObjStone_cFv.s"
}
#pragma pop

/* 80CE9840-80CE99D4 0194 .text      create__12daObjStone_cFv                                     */
#pragma push
#pragma optimization_level 0
#pragma optimizewithasm off
asm void create__12daObjStone_cFv() {
	nofralloc
#include "asm/rel/d_a_obj_stone/d_a_obj_stone/func_80CE9840.s"
}
#pragma pop

/* 80CE99D4-80CE9A1C 0048 .text      __dt__8cM3dGSphFv                                            */
#pragma push
#pragma optimization_level 0
#pragma optimizewithasm off
asm void __dt__8cM3dGSphFv() {
	nofralloc
#include "asm/rel/d_a_obj_stone/d_a_obj_stone/__dt__8cM3dGSphFv.s"
}
#pragma pop

/* 80CE9A1C-80CE9A64 0048 .text      __dt__8cM3dGAabFv                                            */
#pragma push
#pragma optimization_level 0
#pragma optimizewithasm off
asm void __dt__8cM3dGAabFv() {
	nofralloc
#include "asm/rel/d_a_obj_stone/d_a_obj_stone/__dt__8cM3dGAabFv.s"
}
#pragma pop

/* 80CE9A64-80CE9AC0 005C .text      __dt__10dCcD_GSttsFv                                         */
#pragma push
#pragma optimization_level 0
#pragma optimizewithasm off
asm void __dt__10dCcD_GSttsFv() {
	nofralloc
#include "asm/rel/d_a_obj_stone/d_a_obj_stone/__dt__10dCcD_GSttsFv.s"
}
#pragma pop

/* 80CE9AC0-80CE9B30 0070 .text      __dt__12dBgS_AcchCirFv                                       */
#pragma push
#pragma optimization_level 0
#pragma optimizewithasm off
asm void __dt__12dBgS_AcchCirFv() {
	nofralloc
#include "asm/rel/d_a_obj_stone/d_a_obj_stone/__dt__12dBgS_AcchCirFv.s"
}
#pragma pop

/* 80CE9B30-80CE9BA0 0070 .text      __dt__12dBgS_ObjAcchFv                                       */
#pragma push
#pragma optimization_level 0
#pragma optimizewithasm off
asm void __dt__12dBgS_ObjAcchFv() {
	nofralloc
#include "asm/rel/d_a_obj_stone/d_a_obj_stone/__dt__12dBgS_ObjAcchFv.s"
}
#pragma pop

/* 80CE9BA0-80CE9CF8 0158 .text      execute__12daObjStone_cFv                                    */
#pragma push
#pragma optimization_level 0
#pragma optimizewithasm off
asm void execute__12daObjStone_cFv() {
	nofralloc
#include "asm/rel/d_a_obj_stone/d_a_obj_stone/execute__12daObjStone_cFv.s"
}
#pragma pop

/* 80CE9CF8-80CEAF10 1218 .text      mode_proc_call__12daObjStone_cFv                             */
#pragma push
#pragma optimization_level 0
#pragma optimizewithasm off
asm void mode_proc_call__12daObjStone_cFv() {
	nofralloc
#include "asm/rel/d_a_obj_stone/d_a_obj_stone/mode_proc_call__12daObjStone_cFv.s"
}
#pragma pop

/* 80CEAF10-80CEAF88 0078 .text      __dt__14dBgS_ObjGndChkFv                                     */
#pragma push
#pragma optimization_level 0
#pragma optimizewithasm off
asm void __dt__14dBgS_ObjGndChkFv() {
	nofralloc
#include "asm/rel/d_a_obj_stone/d_a_obj_stone/__dt__14dBgS_ObjGndChkFv.s"
}
#pragma pop

/* 80CEAF88-80CEAFD8 0050 .text      init_modePutWait__12daObjStone_cFv                           */
#pragma push
#pragma optimization_level 0
#pragma optimizewithasm off
asm void init_modePutWait__12daObjStone_cFv() {
	nofralloc
#include "asm/rel/d_a_obj_stone/d_a_obj_stone/init_modePutWait__12daObjStone_cFv.s"
}
#pragma pop

/* 80CEAFD8-80CEAFE8 0010 .text      modePutWait__12daObjStone_cFv                                */
#pragma push
#pragma optimization_level 0
#pragma optimizewithasm off
asm void modePutWait__12daObjStone_cFv() {
	nofralloc
#include "asm/rel/d_a_obj_stone/d_a_obj_stone/modePutWait__12daObjStone_cFv.s"
}
#pragma pop

/* 80CEAFE8-80CEB01C 0034 .text      init_modeWait__12daObjStone_cFv                              */
#pragma push
#pragma optimization_level 0
#pragma optimizewithasm off
asm void init_modeWait__12daObjStone_cFv() {
	nofralloc
#include "asm/rel/d_a_obj_stone/d_a_obj_stone/init_modeWait__12daObjStone_cFv.s"
}
#pragma pop

/* 80CEB01C-80CEB0B8 009C .text      modeWait__12daObjStone_cFv                                   */
#pragma push
#pragma optimization_level 0
#pragma optimizewithasm off
asm void modeWait__12daObjStone_cFv() {
	nofralloc
#include "asm/rel/d_a_obj_stone/d_a_obj_stone/modeWait__12daObjStone_cFv.s"
}
#pragma pop

/* 80CEB0B8-80CEB0F8 0040 .text      init_modeDrop__12daObjStone_cFv                              */
#pragma push
#pragma optimization_level 0
#pragma optimizewithasm off
asm void init_modeDrop__12daObjStone_cFv() {
	nofralloc
#include "asm/rel/d_a_obj_stone/d_a_obj_stone/init_modeDrop__12daObjStone_cFv.s"
}
#pragma pop

/* 80CEB0F8-80CEB35C 0264 .text      modeDrop__12daObjStone_cFv                                   */
#pragma push
#pragma optimization_level 0
#pragma optimizewithasm off
asm void modeDrop__12daObjStone_cFv() {
	nofralloc
#include "asm/rel/d_a_obj_stone/d_a_obj_stone/modeDrop__12daObjStone_cFv.s"
}
#pragma pop

/* 80CEB35C-80CEB480 0124 .text      init_modeCarry__12daObjStone_cFv                             */
#pragma push
#pragma optimization_level 0
#pragma optimizewithasm off
asm void init_modeCarry__12daObjStone_cFv() {
	nofralloc
#include "asm/rel/d_a_obj_stone/d_a_obj_stone/init_modeCarry__12daObjStone_cFv.s"
}
#pragma pop

/* 80CEB480-80CEB6E8 0268 .text      modeCarry__12daObjStone_cFv                                  */
#pragma push
#pragma optimization_level 0
#pragma optimizewithasm off
asm void modeCarry__12daObjStone_cFv() {
	nofralloc
#include "asm/rel/d_a_obj_stone/d_a_obj_stone/modeCarry__12daObjStone_cFv.s"
}
#pragma pop

/* 80CEB6E8-80CEB720 0038 .text      init_modeWalk__12daObjStone_cFv                              */
#pragma push
#pragma optimization_level 0
#pragma optimizewithasm off
asm void init_modeWalk__12daObjStone_cFv() {
	nofralloc
#include "asm/rel/d_a_obj_stone/d_a_obj_stone/init_modeWalk__12daObjStone_cFv.s"
}
#pragma pop

/* 80CEB720-80CEBCDC 05BC .text      modeWalk__12daObjStone_cFv                                   */
#pragma push
#pragma optimization_level 0
#pragma optimizewithasm off
asm void modeWalk__12daObjStone_cFv() {
	nofralloc
#include "asm/rel/d_a_obj_stone/d_a_obj_stone/modeWalk__12daObjStone_cFv.s"
}
#pragma pop

/* 80CEBCDC-80CEBE24 0148 .text      init_modePushWolfNonBreak__12daObjStone_cFv                  */
#pragma push
#pragma optimization_level 0
#pragma optimizewithasm off
asm void init_modePushWolfNonBreak__12daObjStone_cFv() {
	nofralloc
#include "asm/rel/d_a_obj_stone/d_a_obj_stone/init_modePushWolfNonBreak__12daObjStone_cFv.s"
}
#pragma pop

/* 80CEBE24-80CEBE84 0060 .text      init_modeYogan__12daObjStone_cFv                             */
#pragma push
#pragma optimization_level 0
#pragma optimizewithasm off
asm void init_modeYogan__12daObjStone_cFv() {
	nofralloc
#include "asm/rel/d_a_obj_stone/d_a_obj_stone/init_modeYogan__12daObjStone_cFv.s"
}
#pragma pop

/* 80CEBE84-80CEBF1C 0098 .text      modeYogan__12daObjStone_cFv                                  */
#pragma push
#pragma optimization_level 0
#pragma optimizewithasm off
asm void modeYogan__12daObjStone_cFv() {
	nofralloc
#include "asm/rel/d_a_obj_stone/d_a_obj_stone/modeYogan__12daObjStone_cFv.s"
}
#pragma pop

/* 80CEBF1C-80CEC180 0264 .text      init_modeBreak__12daObjStone_cFv                             */
#pragma push
#pragma optimization_level 0
#pragma optimizewithasm off
asm void init_modeBreak__12daObjStone_cFv() {
	nofralloc
#include "asm/rel/d_a_obj_stone/d_a_obj_stone/init_modeBreak__12daObjStone_cFv.s"
}
#pragma pop

/* 80CEC180-80CEC1AC 002C .text      modeBreak__12daObjStone_cFv                                  */
#pragma push
#pragma optimization_level 0
#pragma optimizewithasm off
asm void modeBreak__12daObjStone_cFv() {
	nofralloc
#include "asm/rel/d_a_obj_stone/d_a_obj_stone/modeBreak__12daObjStone_cFv.s"
}
#pragma pop

/* 80CEC1AC-80CEC264 00B8 .text      CrrPos__12daObjStone_cFv                                     */
#pragma push
#pragma optimization_level 0
#pragma optimizewithasm off
asm void CrrPos__12daObjStone_cFv() {
	nofralloc
#include "asm/rel/d_a_obj_stone/d_a_obj_stone/CrrPos__12daObjStone_cFv.s"
}
#pragma pop

/* 80CEC264-80CEC33C 00D8 .text      createItem__12daObjStone_cFv                                 */
#pragma push
#pragma optimization_level 0
#pragma optimizewithasm off
asm void createItem__12daObjStone_cFv() {
	nofralloc
#include "asm/rel/d_a_obj_stone/d_a_obj_stone/createItem__12daObjStone_cFv.s"
}
#pragma pop

/* 80CEC33C-80CEC5BC 0280 .text      calcRotBaseMtx__12daObjStone_cFPs                            */
#pragma push
#pragma optimization_level 0
#pragma optimizewithasm off
asm void calcRotBaseMtx__12daObjStone_cFPs() {
	nofralloc
#include "asm/rel/d_a_obj_stone/d_a_obj_stone/calcRotBaseMtx__12daObjStone_cFPs.s"
}
#pragma pop

/* 80CEC5BC-80CEC6D8 011C .text      checkRollAngle__12daObjStone_cFv                             */
#pragma push
#pragma optimization_level 0
#pragma optimizewithasm off
asm void checkRollAngle__12daObjStone_cFv() {
	nofralloc
#include "asm/rel/d_a_obj_stone/d_a_obj_stone/checkRollAngle__12daObjStone_cFv.s"
}
#pragma pop

/* 80CEC6D8-80CEC7DC 0104 .text      set_carry_eff__12daObjStone_cFv                              */
#pragma push
#pragma optimization_level 0
#pragma optimizewithasm off
asm void set_carry_eff__12daObjStone_cFv() {
	nofralloc
#include "asm/rel/d_a_obj_stone/d_a_obj_stone/set_carry_eff__12daObjStone_cFv.s"
}
#pragma pop

/* 80CEC7DC-80CEC888 00AC .text      effect_delete__12daObjStone_cFb                              */
#pragma push
#pragma optimization_level 0
#pragma optimizewithasm off
asm void effect_delete__12daObjStone_cFb() {
	nofralloc
#include "asm/rel/d_a_obj_stone/d_a_obj_stone/effect_delete__12daObjStone_cFb.s"
}
#pragma pop

/* 80CEC888-80CEC948 00C0 .text      draw__12daObjStone_cFv                                       */
#pragma push
#pragma optimization_level 0
#pragma optimizewithasm off
asm void draw__12daObjStone_cFv() {
	nofralloc
#include "asm/rel/d_a_obj_stone/d_a_obj_stone/draw__12daObjStone_cFv.s"
}
#pragma pop

/* 80CEC948-80CEC9BC 0074 .text      _delete__12daObjStone_cFv                                    */
#pragma push
#pragma optimization_level 0
#pragma optimizewithasm off
asm void _delete__12daObjStone_cFv() {
	nofralloc
#include "asm/rel/d_a_obj_stone/d_a_obj_stone/_delete__12daObjStone_cFv.s"
}
#pragma pop

/* 80CEC9BC-80CEC9DC 0020 .text      daObjStone_Draw__FP12daObjStone_c                            */
#pragma push
#pragma optimization_level 0
#pragma optimizewithasm off
asm void daObjStone_Draw__FP12daObjStone_c() {
	nofralloc
#include "asm/rel/d_a_obj_stone/d_a_obj_stone/daObjStone_Draw__FP12daObjStone_c.s"
}
#pragma pop

/* 80CEC9DC-80CEC9FC 0020 .text      daObjStone_Execute__FP12daObjStone_c                         */
#pragma push
#pragma optimization_level 0
#pragma optimizewithasm off
asm void daObjStone_Execute__FP12daObjStone_c() {
	nofralloc
#include "asm/rel/d_a_obj_stone/d_a_obj_stone/daObjStone_Execute__FP12daObjStone_c.s"
}
#pragma pop

/* 80CEC9FC-80CECA1C 0020 .text      daObjStone_Delete__FP12daObjStone_c                          */
#pragma push
#pragma optimization_level 0
#pragma optimizewithasm off
asm void daObjStone_Delete__FP12daObjStone_c() {
	nofralloc
#include "asm/rel/d_a_obj_stone/d_a_obj_stone/daObjStone_Delete__FP12daObjStone_c.s"
}
#pragma pop

/* 80CECA1C-80CECA3C 0020 .text      daObjStone_Create__FP10fopAc_ac_c                            */
#pragma push
#pragma optimization_level 0
#pragma optimizewithasm off
asm void daObjStone_Create__FP10fopAc_ac_c() {
	nofralloc
#include "asm/rel/d_a_obj_stone/d_a_obj_stone/daObjStone_Create__FP10fopAc_ac_c.s"
}
#pragma pop

/* 80CECA3C-80CECA84 0048 .text      __dt__10cCcD_GSttsFv                                         */
#pragma push
#pragma optimization_level 0
#pragma optimizewithasm off
asm void __dt__10cCcD_GSttsFv() {
	nofralloc
#include "asm/rel/d_a_obj_stone/d_a_obj_stone/__dt__10cCcD_GSttsFv.s"
}
#pragma pop

/* 80CECA84-80CECA8C 0008 .text      @36@__dt__12dBgS_ObjAcchFv                                   */
#pragma push
#pragma optimization_level 0
#pragma optimizewithasm off
asm void func_80CECA84() {
	nofralloc
#include "asm/rel/d_a_obj_stone/d_a_obj_stone/func_80CECA84.s"
}
#pragma pop

/* 80CECA8C-80CECA94 0008 .text      @20@__dt__12dBgS_ObjAcchFv                                   */
#pragma push
#pragma optimization_level 0
#pragma optimizewithasm off
asm void func_80CECA8C() {
	nofralloc
#include "asm/rel/d_a_obj_stone/d_a_obj_stone/func_80CECA8C.s"
}
#pragma pop

/* 80CECA94-80CECA9C 0008 .text      @20@__dt__14dBgS_ObjGndChkFv                                 */
#pragma push
#pragma optimization_level 0
#pragma optimizewithasm off
asm void func_80CECA94() {
	nofralloc
#include "asm/rel/d_a_obj_stone/d_a_obj_stone/func_80CECA94.s"
}
#pragma pop

/* 80CECA9C-80CECAA4 0008 .text      @76@__dt__14dBgS_ObjGndChkFv                                 */
#pragma push
#pragma optimization_level 0
#pragma optimizewithasm off
asm void func_80CECA9C() {
	nofralloc
#include "asm/rel/d_a_obj_stone/d_a_obj_stone/func_80CECA9C.s"
}
#pragma pop

/* 80CECAA4-80CECAAC 0008 .text      @60@__dt__14dBgS_ObjGndChkFv                                 */
#pragma push
#pragma optimization_level 0
#pragma optimizewithasm off
asm void func_80CECAA4() {
	nofralloc
#include "asm/rel/d_a_obj_stone/d_a_obj_stone/func_80CECAA4.s"
}
#pragma pop


